[PAD]
[UNK]
[CLS]
[SEP]
[MASK]
!
"
#
$
%
&
'
(
)
*
+
,
-
.
/
0
1
2
3
4
5
6
7
8
9
:
;
<
=
>
?
@
[
\
]
^
`
a
b
c
d
e
f
g
h
i
j
k
l
m
n
o
p
q
r
s
t
u
v
w
x
y
z
|
~
¡
£
¥
§
°
±
²
³
µ
·
½
×
à
á
â
ã
ä
å
æ
ç
è
é
ê
ë
ì
í
î
ñ
ò
ó
ô
ö
ø
ú
û
ü
þ
ā
ă
ć
č
đ
ė
ī
ł
ń
ō
ś
ş
š
ū
ų
ż
ž
ơ
ư
ʻ
ʿ
̃
α
β
γ
κ
μ
а
в
е
к
о
с
т
я
ا
ح
ص
ل
ن
ه
्
ก
ง
ณ
ต
ม
ย
ร
ล
ั
า
ิ
่
์
გ
დ
ვ
ზ
ი
კ
ო
რ
ს
უ
ც
ძ
წ
ხ
ჯ
჻
ḥ
ṃ
ṅ
ṣ
ṭ
ṯ
ả
ấ
ầ
ắ
ễ
ệ
ị
ớ
ử
ỳ
‑
–
—
‘
’
“
”
„
†
…
′
″
⁄
₤
€
₹
⅓
⅔
→
−
≤
☉
♭
♯
〈
〉
の
ァ
ア
キ
ス
ッ
ト
プ
ュ
リ
ル
ヴ
・
動
場
大
戦
攻
機
殻
火
礮
空
隊
～
##e
##c
##u
##r
##a
##t
##z
##o
##g
##i
##y
##n
##s
##p
##d
##l
##k
##m
##f
##h
##v
##b
##9
##6
##w
##j
##8
##3
##7
##4
##ā
##2
##1
##ł
##é
##0
##5
##x
##q
##ç
##о
##в
##е
##т
##с
##к
##а
##я
##ó
##ć
##ä
##í
##ã
##è
##ñ
##å
##ş
##ò
##ú
##ệ
##ầ
##ô
##ü
##ū
##ḥ
##ト
##ッ
##プ
##ʻ
##ø
##ê
##ö
##á
##š
##ì
##ư
##ơ
##ṃ
##ớ
##ō
##č
##ả
##ṯ
##ë
##ắ
##î
##ė
##ị
##ễ
##à
##ś
##ử
##ī
##â
##ل
##ه
##đ
##ṣ
##ヴ
##ァ
##ル
##キ
##ュ
##リ
##ア
##ž
##ั
##ล
##ย
##า
##ณ
##ม
##ิ
##ต
##ร
##ỳ
##û
##ấ
##ă
##ų
##ص
##ن
##ṭ
##ʿ
##ń
##ṅ
##γ
th
the
##er
##in
##ed
##on
##nd
##es
##or
##at
##en
in
##ar
un
of
##an
unk
##al
##it
and
##ing
##as
##is
to
##ic
##ou
##ion
##re
##om
##el
##il
##ec
##ent
##th
##st
##am
##ur
on
was
##ad
##ac
##ro
##le
st
for
##ly
##et
wh
as
##ir
##ol
##iv
##ter
##id
##ig
##ith
re
be
##ow
al
##ay
with
that
##im
it
is
##ch
##ation
##ut
con
by
fr
##ers
##em
at
##ot
an
ch
he
##ce
##us
##ver
##ul
19
##est
##and
sh
##ain
his
##os
com
##ag
##av
##um
##ere
from
##od
se
pro
##ct
su
de
##ess
20
##op
##ies
##ist
##ri
##ap
##ect
ne
or
##igh
were
##un
##if
##ld
pl
##ill
##ich
ar
##ong
##ort
##all
ex
##ther
##ate
##ard
##art
##ak
##ish
##pp
##oc
##ber
##gh
le
##ab
pr
##ame
tr
are
##ud
##ated
##ity
##se
sp
##ant
##ive
had
en
##ore
##ack
##ear
##ie
##ough
which
not
##ov
##ge
##ound
rec
##pt
##ast
af
##our
##ell
##rit
##ment
##ord
##ally
##ian
##ost
##ine
comp
##ave
her
##ip
##ight
##oun
fir
this
##ary
##cc
cl
200
##ue
##ia
but
##ust
wor
ad
their
tw
first
inc
##out
cont
its
bo
##so
int
ab
##ach
##ous
after
##ions
man
##ould
##ure
one
sc
they
##ical
##ome
all
also
gr
##ial
##og
res
##ath
am
##qu
per
rel
##ater
##ub
tim
two
##ra
ro
new
##ide
us
comm
fe
##ign
have
##per
##ok
##age
##00
##ire
##oll
mar
has
des
##ass
##orm
##ru
##ence
ser
play
##own
##ree
been
bec
who
app
part
18
ag
##te
go
##ond
year
##uring
she
##ition
##land
##ile
##du
##ory
car
ev
##ted
##ance
##ely
dis
##lud
##ry
##ans
me
##pl
off
fin
201
##ade
##wn
##ations
im
we
over
##ff
other
br
up
during
out
when
can
##ult
includ
cent
co
nor
##ang
##ric
pre
time
##ite
ind
##urn
dec
##pr
##act
##ount
ear
inter
##ember
##iz
song
##ice
fl
##ens
##ib
##ke
##ace
##nder
into
sec
att
more
##ents
po
##ced
##we
form
would
##ose
##ward
act
te
sou
##ason
##ail
##ks
##one
##port
##ied
char
him
##ited
most
##amp
##ased
jo
##ces
bet
##rib
bl
game
mus
par
high
some
no
kn
##ild
##ase
##ix
##ings
while
acc
them
##man
may
ass
war
rem
##able
cons
##ious
only
##ake
there
##way
##lish
fil
thr
how
##ates
##als
record
##vel
reg
eng
##old
##les
##iss
##form
three
gen
##fer
##gan
##aus
later
under
##gr
about
##ved
##ors
film
##ts
north
through
pe
##ollow
##ween
between
199
season
again
##reat
work
##ood
min
sa
follow
##ction
so
than
li
produ
writ
##eld
day
bu
end
##ph
num
##eric
ac
au
##end
##ual
bat
##ered
rele
el
em
rev
##ational
spec
##ral
win
##ular
south
mon
pos
##ict
lar
##fore
second
sy
##iew
##ames
##hn
##ision
col
mov
##ters
##ft
do
##ey
def
where
ret
four
made
ma
alb
pub
##ick
##hip
##ock
pres
city
##ons
##ning
bro
world
americ
such
##ury
sub
gu
album
before
cap
sch
##ived
air
used
##olog
series
call
dr
sur
##ery
##lic
##ever
ep
sever
##ific
##tern
000
being
supp
ph
years
la
sing
both
many
these
gener
found
##ily
op
pop
str
##ss
set
pol
##urch
loc
hist
stud
count
however
##ected
##ating
back
sim
##red
##ife
add
qu
##ane
sm
dire
well
##ics
rece
will
number
##ird
long
##ten
10
##ained
then
##ause
##igin
##tle
star
div
##velop
##orn
trans
origin
desc
appear
early
##int
##ode
music
##other
state
##ince
several
arm
epis
##ities
art
12
perform
brit
charac
bel
including
against
ter
main
##ement
mill
known
develop
became
team
inv
cro
inst
##iver
##ised
##oup
port
##ection
198
##its
crit
##ines
##air
##li
united
direct
16
nov
##ale
##ve
##ron
##led
show
cre
##ep
##though
although
##ank
est
oper
##ise
century
mil
##oy
conc
##ures
ob
inf
##io
##atch
old
john
##iet
met
##til
##son
const
##ower
lead
following
##ield
near
compan
##ton
though
dist
##tal
dep
sign
##ool
land
contin
like
194
run
##vern
church
##elf
comple
##are
##0s
##rop
open
17
began
196
##ful
down
along
dif
##ann
11
15
##ert
##ather
var
197
because
govern
##ork
##ually
sl
could
fam
describ
##ative
##uch
##ject
##der
##ern
called
peop
episode
did
prov
ever
six
ed
ju
##ains
##els
king
##sp
cr
##emb
##ued
##ession
until
##une
said
disc
feat
area
ship
##ty
american
states
pers
ste
bar
dam
##ined
design
people
##ivers
ann
group
##lished
##ins
##aking
lo
##ley
start
resp
aust
prev
##ope
ger
you
hel
red
since
##gest
##yl
return
##ove
##row
adv
british
west
##ccess
##eer
each
any
same
released
##aph
maj
exp
chr
##ments
offic
national
##uc
own
around
##ured
##ided
##amed
##thern
##ruct
##ange
pass
##ized
head
##ially
##ption
km
##enn
use
##rol
aug
million
wee
occ
##yp
##oman
life
book
major
five
mod
august
best
eff
##az
road
##osed
miss
small
##up
##oot
support
camp
command
serv
##ently
##ele
school
town
##stem
##ull
company
##ible
##ium
195
another
success
med
##res
##au
##ting
award
final
##eng
id
character
##ind
mag
if
sept
attack
public
##ouse
consid
eur
river
great
##ues
just
september
system
gre
storm
line
report
##ists
##xt
class
##ident
large
##omin
games
lit
##ony
what
austral
prot
13
##ms
##aining
tit
193
##ah
child
fur
my
##ales
coll
##ution
due
191
imp
short
arr
##oss
mid
##ets
ii
##ague
##aw
##ural
conf
bre
last
rep
water
june
##ont
history
hum
rest
now
east
even
vide
##ier
black
##ired
##aving
name
##ked
arch
av
det
##aced
review
ge
##dom
ext
late
##ient
government
##ble
german
vers
oct
way
build
home
island
##anc
reach
##ute
received
jan
ra
##ilt
partic
##ately
described
turn
accord
within
species
giv
much
ent
christ
univers
##ored
##app
incre
club
track
##ober
death
##uary
family
##iam
march
october
14
played
cor
cour
ele
##over
##ys
according
league
hur
intern
##ash
took
general
##cept
times
##ropical
gun
third
god
hal
top
vis
##rote
men
##aged
tec
capt
single
##ren
july
wrote
##ages
won
list
power
typ
video
gl
##aim
##ology
##gin
25
mor
##side
dem
##und
apr
##empt
control
differ
based
mo
##erv
##ified
##ball
event
april
##ody
tri
allow
progr
poss
soc
##eal
white
included
ke
leg
##ina
stre
common
dest
organ
rout
york
appro
estab
those
story
##iod
left
january
##ively
result
named
##ead
division
very
belie
person
##by
england
addition
##ew
attempt
del
##ogr
##ven
tem
##ism
ref
period
##ants
auth
previous
house
##sc
ant
eas
30
expl
original
##ament
##ility
##tend
##ital
##akes
pat
##ention
foot
enter
##cl
##ature
heav
november
prom
sol
month
bas
vill
##ug
##ought
bus
##itions
##ilar
vict
place
europe
##ket
har
tropical
commun
##ograph
kill
val
##ances
december
192
built
sw
champ
##ared
##ives
similar
field
light
among
hand
##raft
stand
conv
songs
som
hurric
sent
##ience
make
real
##ished
present
led
##ner
##ulation
milit
further
##ians
##ink
init
player
match
##ides
sug
##ench
opp
repr
far
still
local
##itch
tour
next
100
##ense
2009
law
requ
wind
##eder
2008
2010
##ling
youn
##med
##ards
bill
##ll
##ats
##ruction
view
trad
role
exper
##iation
##ences
histor
came
iss
import
brig
every
right
rock
moved
squ
career
university
love
without
##ime
##ps
repl
##por
sk
tele
##mer
##ham
often
cal
plan
low
##gy
recorded
side
few
##ically
band
effect
hurricane
cur
say
military
##ark
##ison
caus
order
considered
pri
##aken
battal
polit
chart
beh
production
army
memb
##ival
release
##bs
2007
suggest
##inc
less
level
former
park
##ops
##ength
see
assoc
##yle
french
contr
##uss
young
cle
##ories
deb
week
fre
##line
english
claim
cast
sold
##min
point
published
##aur
written
coun
super
repres
take
##que
##aster
refer
continued
half
different
ang
project
post
##ai
##ene
##ae
##thing
##ensive
##wards
##aff
##thers
##ady
forces
days
international
held
##elt
manag
route
##ross
never
##bert
##ler
author
##ior
frie
fun
##ister
help
feder
roy
surv
strong
##lu
force
##iving
prof
tre
night
rad
##ob
##itar
##essed
obs
fire
##uted
defe
friend
cult
##amb
##wh
spe
desp
having
##ged
find
##ico
good
county
sit
throughout
21
sound
##par
champions
compet
2011
##ission
nav
members
##estern
stat
##iment
become
mount
2006
children
jack
##ves
chang
cross
fle
##vision
version
popular
23
canad
title
total
development
wal
particular
gold
lost
##bru
##ott
prop
position
highway
roman
country
##ices
whe
comb
despite
live
##rodu
program
cover
cy
want
##ars
febru
southern
february
eight
rich
press
reported
22
gave
##ush
produced
little
represent
dra
##erc
battle
critic
26
lat
##na
##ple
##idge
central
dyl
pet
grand
dylan
24
geor
##roy
ha
sum
site
fem
##sh
##ots
activ
once
2012
writing
television
given
influ
##self
fort
##ailed
##aces
##iety
president
human
coast
service
don
free
northern
age
aff
afric
##ended
cath
jap
japan
##let
ord
guitar
signific
mich
vi
##ests
include
28
##day
##ried
invol
ground
modern
##enc
hero
western
region
battalion
##arn
##ret
fact
making
pa
pal
should
royal
away
eastern
body
mass
seven
##omen
##ize
2013
occur
lab
mi
##ring
##ness
struct
seen
arg
pur
larg
##bo
lim
stated
burn
fif
look
hor
ham
too
across
ir
instead
ball
hour
ill
##ploy
ships
returned
dav
##br
##ising
earli
techn
established
equ
ft
trav
using
destroy
dou
##xim
conn
population
190
america
construction
elect
##sequ
noted
championship
full
ire
announ
##augh
##ither
reached
sun
developed
building
ve
wood
##otion
thought
##ably
introdu
players
ireland
##ches
brigade
ten
mix
various
football
50
##inted
##ades
mean
##play
significant
civ
##fic
works
engine
##ying
performance
27
prim
important
ec
lond
broad
miles
london
tor
himself
kingdom
father
net
son
##ese
mark
##ground
##ech
william
read
##ape
##iction
##ama
style
##ford
##aint
##ument
exc
performed
felt
pra
bird
##ened
australia
tro
##idence
##ological
areas
feet
official
cert
went
need
events
atl
indust
does
cas
relations
mm
##used
poem
died
range
##ones
##rew
civil
cup
fig
fall
brown
put
begin
decl
successful
others
##most
##atic
relig
earth
originally
vir
##iec
court
##reek
upon
bri
##aign
campaign
base
dev
##ief
##ourn
formed
started
james
let
##craft
know
characters
political
##gether
women
##pression
##itive
novel
bow
get
lang
front
suff
born
##ipp
stars
##antic
caused
located
eventually
scient
ins
center
phil
tradition
tur
vo
discover
street
director
vol
critics
hot
hold
##ration
##ints
able
special
created
entire
bur
##ael
##earch
research
189
word
2004
od
wall
##ef
##alth
proc
2005
##get
##omb
##ogn
##ucle
bi
mat
##ements
produc
fac
hill
ly
##irc
magaz
ol
cer
fight
##me
##onom
rh
##ax
##mp
together
##work
##iness
##ript
becom
meet
##unch
heavy
##ges
indep
independ
##vers
pred
circ
fav
ide
sel
##aves
##ample
remained
colle
grow
hom
ru
##ination
##iting
##ster
anim
agre
completed
guns
##fall
scored
diffic
difficult
##mit
sea
depart
mer
##mar
##ering
##isted
australian
announced
loss
mother
gal
nucle
almost
fourth
##king
##ator
chap
##ested
prote
goal
##asing
##ects
peak
nar
##co
##iers
comment
least
damage
behind
##ress
##ivid
party
added
aud
journ
ver
##ald
condom
followed
months
31
bir
bay
pen
wife
stri
colon
appeared
territ
##ara
killed
squad
relationship
hon
voc
##lo
playing
rail
inn
cond
ap
sex
##orts
awards
david
cop
pitch
ident
aver
cell
##be
##enced
features
individ
nat
##enth
station
curr
process
29
wr
##iated
inform
enc
flor
aircraft
2003
round
taken
##tim
insp
##arch
commit
accom
sour
##ota
recogn
appo
185
flight
##ung
2015
counc
fleet
fa
jew
##ship
quar
leading
40
##acy
estim
infant
creat
mach
rank
##ray
france
##emy
##aper
action
either
san
##field
served
recording
subsequ
lack
treat
towards
langu
ber
case
hall
trib
##ully
proble
operations
parli
fund
mem
##ream
reb
decided
saw
elements
den
##osaur
transport
key
non
rul
##olution
close
records
host
los
##ox
##osp
soon
generally
believed
magazine
hy
##ries
separ
robert
archae
edu
##ique
carey
female
parliament
ach
card
hard
##anch
tom
impro
draw
##cted
##elling
commission
##ization
accept
manager
mater
wid
##yn
example
meas
flood
points
council
infantry
mad
sal
##dle
clos
commerc
188
interv
move
weeks
business
hit
rather
##aly
tow
regular
study
##cent
##ecut
##utes
##igned
mex
european
rose
outside
federer
compos
prem
opened
##spec
hen
regard
directed
##eum
##gn
brought
saf
bra
##ino
finished
approach
cost
du
domin
hol
que
sil
wales
stop
earlier
der
sat
##ida
##ceed
##ways
featured
past
viet
yard
victory
educ
achie
member
##uit
##tended
foc
sn
teach
cru
##ston
stage
blue
ath
gir
tal
##ming
provided
association
bey
expr
##ordan
working
launch
opening
village
35
##my
##oph
respect
##ography
wanted
##ency
troops
big
ul
##af
##ole
##den
##oted
room
##rict
appearance
redu
jordan
union
stay
stru
beg
deal
priv
186
particularly
fly
mc
ren
##ned
thom
##asion
condu
##odes
indic
secret
cut
qual
##ential
reason
anc
sequ
prob
depression
2014
crew
tech
initially
winds
atlantic
esc
##tain
##bit
##imes
evidence
##medi
girl
##ki
office
largest
radio
##nes
##oring
##etic
museum
minor
employ
christian
george
ur
##ped
19th
possible
mary
##uter
##ids
come
type
race
##go
middle
summer
length
yards
##read
##eler
above
observ
##west
##ouri
pract
instit
florida
ey
feel
invest
500
##sel
##ounted
allowed
social
anti
commercial
mac
norm
##action
critical
saying
clear
creek
rain
inh
##ellow
operation
construct
somet
oliv
rap
wil
##ee
##erm
##erous
whom
hours
kh
nine
nomin
respons
econom
material
##ators
##thod
exist
2001
poor
regiment
worked
sym
police
missouri
quarter
mos
##east
##pan
strength
reception
designed
society
community
horse
food
lower
nec
##iding
cho
specific
liter
previously
##ne
seem
neg
prior
forced
##board
era
mcc
pain
wild
##ze
##ania
plat
remains
lik
acad
sus
ven
princ
goals
quick
paul
increased
contract
viol
praised
fut
jud
must
##onst
##esh
indian
avail
kil
threat
##aps
187
personal
doc
er
fiction
mur
pot
##to
##ago
coach
interest
background
michael
units
##istic
##ublic
surf
studio
commander
media
taking
##val
profession
egy
ho
##ana
##ica
parts
writer
replaced
egypt
mult
test
##xas
##ington
stone
##vert
proper
navy
richard
industry
interview
bal
uk
##ata
shot
##umb
account
situ
face
hous
hosp
pac
##gg
capital
religious
##ius
scre
highest
republic
reviews
college
##cast
##uel
##lin
##ributed
assist
discuss
claimed
beginning
henry
mph
section
theat
##erved
canada
certain
estimated
ban
##anned
fish
lines
##rated
##eston
##ude
joined
break
approxim
establish
japanese
average
ny
rang
##round
##gar
##ille
stories
##ription
placed
training
phys
oldham
involved
##ecutive
happ
forest
##ronic
object
signed
increasing
suggested
travel
introduced
di
gar
##wood
##ores
##erson
change
assemb
sometimes
sem
##oon
inj
today
dead
intens
183
cycl
olivier
dom
##for
unc
heart
itself
scen
scene
going
carol
complete
vietn
our
##ik
##omet
diss
immedi
transfer
structure
mexico
give
lin
names
thus
arab
additional
athlet
available
date
male
watch
##ties
##band
touch
##olic
tru
##elled
airport
language
zeal
##ck
##ky
##ving
whose
india
term
nearly
occup
pay
sam
##oney
subst
fifth
thomas
irish
approximately
bod
##aries
##ready
already
contem
##ibility
##porary
friends
appointed
36
mot
mart
native
piec
size
##less
##bar
told
staff
syn
britain
shows
damaged
plot
##abit
##achel
remov
turned
issue
probably
woman
think
##usion
surround
espec
wat
##bor
##stand
deep
grad
winning
mont
cathed
dut
might
##off
chic
twent
students
complet
lyric
zealand
ran
##tered
passed
captain
pacific
cat
lord
network
especially
pan
##arily
withd
enough
notes
admin
184
dark
failed
##oth
##omm
forward
chines
board
display
overall
running
##anna
mixed
chinese
00
45
##ector
better
quest
cred
mal
ot
##iff
2002
particip
debut
limited
natural
cou
dig
daugh
fer
space
musical
green
iii
future
doll
##oid
##oration
exam
span
spent
bridge
includes
moving
arrived
angel
changes
wheeler
ordered
jin
##yer
##onc
##ume
##quar
usually
remaining
slow
visit
canadian
larger
education
cathedral
fail
lay
penn
roll
##onse
##ections
abs
birds
department
aut
hop
lake
##atory
##ula
grant
required
mountain
peter
broadcast
hu
ox
sen
upp
##eth
##nel
##down
##reg
##ulated
decision
latter
bab
lou
##ask
##acing
##imin
##ective
boy
imm
remain
response
africa
virgin
60
wide
##ita
##ulf
2000
rob
reveal
voice
dub
nature
saint
##ateg
breed
upper
dro
mention
mounted
##gu
##ilities
##eter
traff
related
##ference
groups
rachel
##riage
centre
birth
territory
##head
##bers
##itz
science
poet
films
ended
positive
feature
billboard
professional
cad
##fect
##bc
##ste
health
##ump
score
finally
schol
supported
culture
squadron
gi
hun
iron
living
money
oly
ali
scott
news
pressure
becoming
olymp
pu
##ker
always
charles
provide
books
smaller
self
##edy
##ani
shown
##ifa
##ells
flow
1995
prevent
headquar
discovered
private
mr
##ih
anth
##aker
##pped
minutes
shortly
gods
temper
38
nin
nations
oce
tar
##back
##ocks
trade
ens
temple
experience
frequ
defeated
cm
got
tv
##rd
##ney
##inct
##uments
exh
subsequently
##selves
surface
je
##rack
##gl
##iter
##ases
box
effects
jer
mom
subject
fox
hair
makes
##uals
##ecting
blood
greater
bord
cele
teams
bowl
##mitted
problems
##idents
##ulted
learn
intended
disp
numbers
batt
emp
collection
largely
scientology
idea
pian
##ishop
percent
mostly
themselves
##ending
conclud
concert
metres
haifa
primary
##stein
dj
mort
pair
##eign
##aut
##orial
unit
##ote
##agon
sev
##apt
2016
captured
valley
referred
machine
queen
likely
corn
tenn
xen
yet
##gen
##ners
##ites
##iforn
croat
constant
keep
californ
favor
traffic
xenon
75
cause
coup
your
##ios
##rael
market
whole
method
location
entered
tower
amount
arrang
square
haw
jun
sov
frank
adm
contains
amb
##oke
product
batter
guard
portug
majority
greatest
listed
morning
galv
ranked
constructed
lyrics
headquarters
##kan
leaving
1999
sett
starting
cric
russ
##ises
##acted
##ples
studies
whether
information
##ergy
israel
election
companies
officers
competition
jewish
ocean
hus
adop
consist
create
oppos
fighting
galveston
bad
fans
pit
pun
##uing
##aring
tourn
chief
##ception
color
changed
##ault
##gian
##ining
##edic
##oles
forms
theme
settle
episodes
concern
proposed
ultim
celebr
cam
fest
jam
lived
master
takes
van
wing
##lor
##ville
plans
newsp
emer
publish
soldiers
influence
agreed
journal
committe
administ
2nd
log
pow
##tar
##of
##ma
##teen
movement
singles
runs
increase
standard
meaning
brief
launched
california
liver
##rison
##zz
##pool
##jected
beach
compared
intell
script
graph
terr
catholic
independent
current
##osaurus
quickly
cra
dyn
lady
##under
##ken
##urity
##change
meant
brad
minute
villa
trees
occurred
##men
things
shoot
leave
true
##ipal
impr
bring
attr
assigned
artist
sixth
magn
corps
focus
tax
##lim
##atively
inside
##illery
adult
##key
appears
artillery
services
determ
defeat
destroyed
traditional
condoms
screen
400
gall
nix
tons
##zy
##fact
##isions
anal
##ability
serious
longer
schools
refl
double
contemporary
chicago
bomb
here
ross
##tained
asked
##iva
ital
care
sched
investig
80
aer
bound
ca
##aded
##ett
alice
concept
##andon
carried
cann
revolution
awarded
##onym
counter
proteins
source
cyclone
33
ben
dum
done
hund
ll
spir
marriage
something
1998
writers
ending
buildings
initial
latin
conducted
hospital
daughter
hundred
ast
pil
##ga
##ds
##outh
simp
district
complex
annual
associated
status
burns
ancient
rapid
twenty
300
##essions
##ortun
scot
finish
access
consider
empire
kick
##ban
unable
alkan
conference
##ria
married
1993
albums
polish
constit
archit
commented
##well
asp
beat
env
image
##ails
numerous
brother
victor
castle
african
scenes
husband
liverpool
nixon
1st
32
bud
fow
path
purch
ray
tay
##oor
##ification
producer
fit
rat
row
##hou
texas
minister
positions
christm
management
inspired
ott
ale
fant
##anced
##erset
terms
attacks
tracks
somerset
speed
ga
os
thick
##eless
##ander
##umn
earned
defense
crown
individual
accompan
mosley
piano
dail
chann
20th
planned
spring
##gress
1996
acqu
variety
giving
busch
issued
begins
daily
70
aw
camb
dedic
ign
lif
rom
via
throw
chall
marked
actor
performances
directly
edge
occasion
historical
nuclear
immediately
committee
bid
horn
mel
ple
yellow
##eas
##ease
unli
##ams
##ands
imag
##ylv
figure
safe
document
spanish
taylor
christmas
bank
fear
##ger
chem
recover
portray
slight
organization
helped
combat
waters
withdra
fowler
cand
cold
und
##ca
rein
##umed
##istics
conserv
polic
experi
##aught
suffered
ess
fol
habit
##kel
##itor
##iser
franc
search
uses
nearby
advent
impact
baby
jane
##light
##itude
really
closed
abandon
metal
leaders
presented
cultural
soviet
ow
##bed
financ
weap
presence
drum
raised
casual
vocals
wound
##ón
##room
##rovers
stad
controvers
perfect
disapp
paris
continue
mission
attempts
figures
rule
roseber
carolina
virginia
##ylvania
##pre
##ba
##ari
##itation
##isc
dism
below
##iami
hands
sky
federal
covered
rhy
penns
kind
nation
pict
rif
##urs
##alled
sport
compr
composed
##athan
relief
peace
officer
selected
assembly
##ging
##ny
##mon
##erve
extended
higher
1997
appearances
course
beyonc
susp
bodies
beyoncé
90
fell
miami
ut
##wor
##joy
thir
##icted
suc
##essa
enjoy
offensive
countries
advance
germany
promotion
needed
39
bond
diam
paper
sand
##ev
##rical
##nh
thunder
##ening
##anded
places
incor
##ously
meyer
powerful
purp
situation
##standing
mile
##anas
##ental
fruit
comedy
arts
promin
recent
highly
emper
crow
attacked
##chester
festival
link
##mium
singer
transl
confir
protein
cadmium
cricket
analys
pennsylvania
bass
##ii
##uries
che
deg
##apo
plant
energy
inters
##ension
northwest
movie
distance
edition
allowing
necess
academy
kilomet
multip
removed
architect
nico
pul
rush
##vement
wash
foreign
##olf
##osph
prince
compl
##lands
offered
canc
##ibly
active
levels
jackson
peaked
sexual
widely
theatre
scotland
42
fill
jose
pick
ris
rate
rear
attend
except
##pted
resc
182
means
prep
text
1991
governor
chris
model
typically
attempted
somal
combined
veh
meeting
vocal
copies
gard
swe
##track
##pole
##imony
china
##anta
scoring
branch
prec
##ribution
block
themes
extre
window
soundtrack
respectively
responsible
stadium
47
sister
##su
thous
anderson
prepar
genus
describes
advant
##uck
islands
entertain
activities
labor
symb
touchdown
bul
ram
##com
altern
##cend
sports
formation
1992
doct
sets
protest
heavily
observed
braath
houses
question
envir
44
rough
sir
##ding
parents
remix
1994
phot
opportun
rights
looking
silver
reduced
alex
bol
lock
mol
sales
##iny
##aped
##overs
bob
resulted
appar
northeast
minnes
defence
armed
matches
audience
quality
concluded
minnesota
gh
kr
kak
mas
om
wear
##lict
clim
residents
maxim
calling
reports
activity
conditions
completely
candid
kakapo
3rd
jim
lot
ton
wave
stating
reform
##send
managed
scr
carry
featuring
efforts
townsend
contrast
revealed
rosebery
vehic
bon
gro
sac
##awn
shr
##ocr
finals
specim
smith
description
artists
europ
refused
declared
separate
domest
italian
spirit
environ
sav
##ex
##uk
##rate
##beer
reign
finkel
therefore
winter
##ologist
dress
1970
famil
entr
walpole
independence
honor
hawai
channel
meyerbeer
finkelstein
bed
lie
mun
mech
tessa
chronic
shiva
coming
##ify
##athus
security
seasons
instr
titles
naval
casualties
emperor
51
76
yue
##gal
shar
actions
colour
expected
legal
issues
eye
ottoman
nicole
##ican
##ems
plays
weaken
attention
mainly
respond
words
becomes
practice
37
fast
##iate
##abor
scale
offer
webs
assault
types
strugg
tournament
reinfor
braathens
sense
##ufact
##inal
##isl
##aging
manufact
actually
glob
progress
legisl
communic
hait
primarily
excav
letters
express
border
ultimately
domestic
hors
lis
roles
actress
1990
liber
write
johnson
demonst
survey
illino
hotel
accepted
achieved
struck
intellig
cannot
bene
core
fully
nest
##ils
sust
recomm
grass
weather
charl
job
musc
colony
foundation
##uese
viewers
authority
illust
vietnam
portuguese
folk
entertainment
48
categ
fair
jul
tree
##hood
##onents
alone
##aven
neigh
advert
181
workers
alongside
##aha
elev
antimony
behav
authorities
flooding
sequence
rainfall
52
ce
cab
dang
lb
nes
push
##oo
##her
##enue
##anes
##ado
spread
elected
columb
broken
termin
1986
owned
measure
moment
battery
newspaper
slightly
bishop
dream
data
males
ridge
sr
inches
stan
##ulations
##essor
##ift
prison
spain
twice
perman
defensive
opera
concent
distinct
150
standing
affected
expressed
murder
incorpor
34
aid
hers
mess
mog
rug
tel
tun
##ād
stra
##emic
computer
clar
scul
fey
180
disease
showed
campus
purs
officials
journey
apart
##ceeded
flying
louis
battles
pound
tint
wels
zhou
##bury
toward
##road
ability
artic
##ledge
varanas
barrow
exped
conflict
historic
planet
##ipped
mechan
tintin
welsh
varanasi
fat
tan
##house
##bur
andrew
##ingu
##ented
react
alle
height
compar
apple
emb
direction
titled
##apped
##bitt
physical
##onymous
nesbitt
lives
nick
overs
##aen
chair
seat
eva
acting
produce
surre
continues
skin
says
sites
earliest
odaen
ceres
individuals
encour
composition
angeles
mentioned
financial
environment
odaenathus
bor
cities
lu
sides
sarn
##yr
##pa
alab
cong
##rial
singing
founded
resulting
deliv
influenced
engineer
torped
cerem
olympic
adopted
dumont
sarnia
torpedo
sle
##onna
##atives
##enant
step
executive
##eller
##ogue
perón
appeal
else
officially
basis
farm
##while
represented
sources
potential
digital
dedicated
analysis
advantage
illinois
dur
jos
jump
ka
oil
##hel
##hold
##bird
##alty
ash
##uled
##ovic
manchester
doing
studios
lands
propos
equip
hyd
wilhel
surrounding
thunderbird
mogad
dog
faced
lib
vess
wed
relatively
medical
delay
doub
exhib
withdraw
washington
maximum
wa
insc
attended
sha
contain
18th
1988
older
capture
tried
organized
pattern
females
freeway
chapel
narrow
losing
transferred
scholars
admir
##gs
##iber
##osen
proved
spot
notable
feed
drive
student
effort
extra
require
meanwhile
beyond
piece
unlike
omaha
alabama
eat
hope
##ires
##utions
spect
compound
boat
agric
poly
charge
emph
extr
element
believe
function
animal
archaeological
literature
target
fantas
agricult
draft
kg
##adel
##ishu
note
follows
opin
divided
1960s
designated
helms
possibly
results
charts
golden
baseball
##timore
institute
intensity
mogadishu
49
65
dv
dance
mic
##sen
##mond
##hl
unkn
##oms
##ols
fred
shape
prime
content
images
tend
arms
1980s
1940
1964
edward
returning
supporting
solo
historian
paid
structures
innis
treaty
determined
simply
wilhelm
die
kent
##rane
##lied
onto
chor
neut
underground
portion
creation
kept
technology
letter
growing
economic
dissip
couple
camer
joseph
entrance
rugby
equipment
emphas
dun
kore
md
rare
sis
##een
##lers
##kare
##bour
##writ
##igan
reaction
##rie
flag
filming
jup
repe
importance
weekly
##where
argued
knowledge
railway
secretary
mccall
lane
mouth
rih
##station
##ada
##aine
##oper
##rian
playstation
cook
depth
landing
publication
grew
restaur
mob
convers
suggests
projects
argent
hamels
buried
favour
currently
baltimore
rihanna
64
fix
gang
gained
paint
wit
##iations
##atops
##acement
lege
weak
belong
advanced
causing
reference
criticized
orders
volume
escape
breeding
website
sculpt
legend
5th
cit
eag
les
luc
rise
##lies
##edkare
conver
share
containing
guest
reaching
clean
debuted
claims
palest
homes
property
djedkare
horses
jupiter
bott
rar
sor
vic
##rid
##lings
##wide
theory
ingr
chosen
deploy
enemy
##asty
weight
##prise
miner
defin
leader
1947
visual
democr
personnel
label
torres
religion
administration
ahead
bull
hib
outer
##cing
##rative
inch
##lement
rejected
beaut
frag
##umes
lew
newly
consecutive
column
youth
cases
seems
granted
abandoned
dismiss
prominent
unknown
din
pine
##wise
##orter
##enge
##oud
##use
deities
##ella
coal
secondary
1941
visited
commonly
##white
chapter
cells
encoun
faith
increasingly
scottish
settlement
crazy
multiple
applewhite
haven
rid
##tv
##mes
##met
##hed
##att
##stone
##iven
##iana
regions
##phia
seconds
defend
broke
1987
passing
systems
growth
condition
francis
wounded
risk
molec
##adelphia
iv
pag
tact
thing
##edar
shel
adj
mind
1970s
versions
##ancy
trip
promoted
killing
request
volun
strike
identified
nominated
egyptian
senior
temperature
fantasy
53
9th
bbc
fame
greek
save
selling
##ris
unique
stations
##ims
anonymous
##osoph
train
spl
aired
120
1989
1984
1972
famous
roads
towns
opposed
philosoph
agreement
problem
snow
croatia
dvd
4th
cub
rod
##uous
##tav
##aming
##ety
##illa
##ills
##astic
fired
nothing
1985
operated
avoid
glass
mike
animals
premier
choice
truth
hms
##cle
##ugh
trou
trust
boats
serve
filmed
writes
drama
1960
explained
ideas
subsequent
cardiff
cougar
poetry
confirmed
55
cust
##pass
##mosph
##ros
atmosph
excl
try
interchange
consisted
register
max
invasion
1944
gives
controlled
michigan
philadelphia
ode
biograph
regarded
rapidly
weapons
families
herself
bc
jon
math
oh
stock
##umber
##odon
contact
##ached
reserv
applic
actors
joint
1990s
maintained
slam
repair
trial
keats
swed
battalions
memorial
pieces
failure
dropped
seventh
aspects
fash
ib
kings
rit
sens
vert
##dh
##bon
##ano
##isation
##icient
##rect
##otes
chains
##istry
carl
highlight
phase
landfall
province
extensive
williams
pitched
urban
injury
synth
dutch
43
600
ai
gulf
none
tell
##kin
##mun
##bre
##ero
andy
##ura
italy
congress
##ighth
extend
##ieval
gray
resemb
bright
cool
southwest
southeast
retired
transit
steve
km2
medieval
humans
raid
belief
value
fung
speak
criticism
crowd
sustained
56
gain
kar
##nest
##hroom
##ena
##stream
##urb
why
plum
abu
##rick
mushroom
americans
supply
passes
finding
connected
significantly
virt
facilities
recognized
creating
premi
semi
prepared
straight
bell
eth
gord
mig
sought
##haps
stones
chose
gram
perhaps
bats
emotion
concer
protection
basket
champion
popularity
walls
matter
producers
penins
scheduled
necessary
intelligence
surrender
46
cited
catch
dar
drop
rog
wolf
unus
##rete
##theless
comic
send
recently
reconst
indu
flank
monument
##amese
laid
generation
1981
distingu
starts
myth
losses
nucleus
treatment
vietnamese
jeff
powers
bost
dated
fought
hart
igu
nathan
rival
wish
##tch
##isy
altar
##ulate
orch
##ordin
imper
##izing
calc
regarding
employed
gradually
cambod
lieut
thunderbirds
41
700
ice
motion
rating
##uff
##more
##inity
##irt
consequ
fresh
shell
comes
arc
adapt
contained
ends
distribution
crash
1939
household
convention
finds
safety
frequently
budget
##eastern
conservation
policy
cin
gas
hung
ni
naz
rub
vice
##ez
##ta
##yan
##lam
##lines
##vin
##itable
##iced
chel
sund
exec
trail
contributed
attorn
wars
worldwide
dram
severe
pho
1942
17th
serving
collected
allows
negative
athletes
gradu
oxford
habitat
degree
bottom
gordon
peninsula
attorney
bru
dial
dani
nba
ring
thin
##onent
##olved
shaped
neither
##illo
join
gameplay
minim
wins
concrete
depend
crus
1950s
130
1918
turner
effective
surviv
championships
entirely
improved
commissioned
economy
dynasty
pilot
constitution
lisa
lieutenant
54
cart
dry
et
es
vul
##aust
##iro
##ych
##bl
##thur
##iday
sud
boise
mario
##ansas
muslim
setting
simple
1969
1968
sentence
priest
drawn
electric
earthqu
reasons
slowly
mortal
kilometres
europium
lewis
fashion
boston
57
bern
dates
egg
gully
jain
lov
##lusion
##esis
stages
##iments
##sea
canal
cooper
decade
parall
179
1975
expanded
##apping
planning
programs
macle
martin
russian
astron
chemical
roughly
expedition
chorus
800
bes
bit
dw
dota
fellow
ic
tail
##yson
##po
##mission
##rey
##iring
items
frame
seg
plate
incident
allied
aml
evita
upd
centuries
cole
pope
12th
portra
1965
1974
evening
authors
patrol
massive
turk
wrest
transportation
girls
eyes
normal
negot
occupied
occasionally
libr
micro
volunte
aston
mand
ps
sector
##jo
##ánh
##icipal
##ads
##berg
decades
floor
quite
churches
editor
juan
##ancing
deaths
additionally
speaking
successfully
honour
conduct
khánh
violence
fictional
dollar
experienced
municipal
##āda
bh
eld
hell
jurch
kir
rac
rome
rivers
wides
##uli
firm
formula
engaged
didn
##resp
avenue
laws
jamal
purchased
wedding
96
bart
drew
kits
nc
ron
tall
##ek
##ees
##iqu
##fl
##aria
##asure
##eck
##lyss
##lywood
alf
isab
##ersey
prefer
interact
remn
164
1946
passeng
greg
protagon
details
politics
declined
brian
begun
platform
princip
motor
##borough
learned
tennyson
briefly
terror
attract
challeng
purpose
sweet
category
permanent
73
95
gross
hin
nich
sie
zone
##eals
##iant
##fort
##erted
##icks
store
recre
worth
marine
applied
interior
accident
liu
elimin
moves
guide
simone
adding
performing
1950
organiz
basin
industrial
literary
dublin
settlers
disappear
thirty
exclus
iguan
imperial
61
gab
hired
kang
##iences
unsu
##opes
arsen
exception
adap
##oked
marl
marsh
soft
acres
longest
1966
crime
##azz
1952
justice
1919
arrival
corpor
possibility
routes
solid
fields
billion
experiment
discovery
holy
happy
participated
accompanied
enjoyed
responded
paintings
earthquake
97
ari
fan
loy
mu
mist
ulyss
wick
##ror
##oir
##acu
##ayer
heard
##apes
maria
##izes
flu
brothers
developing
##oys
oldest
177
##anny
steph
owners
heads
characteristics
1936
technical
engineering
braz
painting
macleod
ulysses
fal
fount
rot
ros
sail
##pread
##iled
ones
stal
##eton
##erse
##istan
reserve
goes
flat
charter
consists
populations
1973
1930
lasted
reviewers
typical
younger
freed
speech
combination
coastal
dougl
biography
funding
dominated
existence
anthony
thousands
turkish
widespread
caught
fuel
hip
hind
map
##rence
##fit
##eda
tot
##adow
isol
chance
##usal
##ocated
spons
##ffman
brid
mah
submar
guy
calls
depict
1967
##ccessful
anything
missing
turning
clubs
reality
initi
everything
competitions
mountains
cardinal
closely
stopped
existing
weakened
unsuccessful
62
aim
cd
cry
jersey
lic
sap
tells
vision
ye
##come
##rum
##set
##aser
##isers
##otyp
cham
lear
##ips
roof
usa
decre
decline
noisy
assass
brook
capable
phill
belt
110
provides
serves
magic
greatly
grey
classic
1930s
1914
moon
legacy
similarly
##shire
affair
holding
creator
rules
derived
assistant
opportunity
ceremony
sunday
85
bought
gil
jes
jazz
sort
task
witch
##eed
##don
inner
albert
contrib
grade
resident
descend
##rupt
carib
soul
supposed
locations
receiving
invited
headed
storyline
palace
technique
reading
innings
##bean
cruiser
neck
rolling
pupp
hornung
filled
vehicles
instrument
battleship
dissipated
restaurant
orchest
chelsea
iguanodon
douglas
caribbean
6th
71
kenn
ml
mine
rural
##yc
##sw
##ía
##ato
##amy
asia
##unk
leon
##pty
perry
evil
monarch
door
maeda
receive
novels
1945
1971
describing
stew
classified
ways
courts
destiny
##ographic
viewed
survived
georg
falls
hills
colonel
colonial
railroad
accompl
establishment
constantine
ratings
symbol
hibari
59
mtv
pack
qedar
sin
sara
von
##ridge
##ruli
##ya
##hu
##win
##arian
shared
trying
boys
abb
grav
acid
whereas
simon
1982
downlo
evergl
stev
expos
entry
romani
georgian
inspir
flights
teaching
alien
acquired
repeated
eagle
converted
astronom
library
everglades
bath
eighth
fine
kur
rio
##laim
##hire
##bled
##entially
##utation
supre
##iston
##aked
spacing
resist
resour
evacu
##issance
1980
160
depicted
1976
barb
lover
expans
1956
1916
1913
demand
moz
entering
regional
electronic
engineers
poems
focused
principal
banks
watched
substant
arranged
opposition
oslo
succeeded
rescue
haiti
opinion
atmosphere
72
81
8th
dock
jones
mir
mut
merc
tas
##can
##zac
##acity
franch
exact
exerc
partners
agent
attached
joy
knew
defined
address
1943
175
providing
township
deter
corresp
communist
prize
penalty
venus
assistance
credited
credits
puzz
methods
rhyth
article
basketball
cinem
daniel
siege
brazil
correspond
94
dating
gate
han
hang
hits
il
kit
lenn
poll
tied
table
##ela
##ette
##agre
lev
worship
amate
##okes
desire
outstanding
pregn
##erick
supplies
10th
1963
112
##awa
250
morrison
explos
professor
civilian
holds
colonies
rebu
separated
renamed
rangers
examples
controversy
delivered
rarely
phoen
hindu
adapted
stevens
cul
hyp
jay
mul
ta
##iot
##hi
##jam
##asc
##estone
##anda
plun
##sey
##outs
prey
secure
remar
regime
176
crimin
camps
commanded
classes
australians
protect
protected
certified
##riptions
archaeology
hollywood
indicate
accounts
athletic
immig
remainder
consisting
bradford
utc
alexander
columbia
split
sudden
fountain
77
cav
dru
pav
pup
tests
##rang
##rons
##gé
##ha
##jillo
##rel
online
##adh
anzac
##athers
##ologists
divine
16th
1978
1953
turns
references
occurs
introduction
facing
memory
tomb
maryland
feelings
specifically
threatened
uncle
hearts
trujillo
montana
croatian
chairman
dan
ech
pap
##eu
##he
##ona
##ilton
##aments
alan
hear
##ighter
arthur
exit
leaves
intention
roxas
flash
acts
##issipp
undert
soil
##ifications
studied
divisions
appearing
leads
11th
passage
moder
missions
mississipp
successor
reputation
communities
views
statement
walter
connection
wooden
scientific
producing
recognition
appoint
denied
feeling
favorite
shooting
finishing
romantic
portrayed
alternative
masters
charlie
agricultural
citiz
dinosaur
mississippi
69
7th
kel
##uan
##ture
##ike
##bles
##body
##ati
unf
##usc
##agues
##rier
##ifying
##ardo
lee
print
recru
worst
offense
warri
consc
howard
##phy
strand
strateg
maintain
infr
depos
discip
1915
reviewer
basic
seeing
activision
labour
getting
homer
duke
samuel
lords
gallery
picture
rifles
message
dismissed
arsenal
supreme
98
cens
jac
rand
##ule
##oz
##ni
##kn
##kins
##han
unn
##rec
##ador
chess
##ules
##oses
noting
interested
attributed
charges
knots
warm
capacity
continuing
stef
steel
enterprise
opponents
replace
calvert
changing
involvement
##iece
drawing
academic
discussed
dollars
hugh
##works
specimens
custom
isabella
plunket
66
ble
cos
dna
danny
hem
lamb
nbc
session
ty
vary
##town
##taining
##jev
theater
##erog
##orters
inland
##elve
##ivity
fran
plain
exchange
twelve
##ogen
offers
knight
eliz
1948
1917
standards
##oba
predec
wrong
ruled
towers
holiday
challenge
adventure
ghost
global
dangerous
ritual
kitsune
sarajev
sarajevo
faces
opt
sight
yank
##mans
##itors
##ading
forests
proh
##iful
plants
##ube
indig
someone
retire
instruct
signing
1979
##ructure
1951
rocky
equal
difficulty
tribes
scholar
ninth
guardian
considerable
victoria
frederick
emotional
stephen
yankovic
cory
da
dod
gri
mode
races
taught
voy
##egr
##rig
##gency
##ients
##born
##inary
##orer
##itan
##itage
pros
enl
##pton
heritage
manner
marc
marks
##kson
joe
##graded
##ocked
landed
1961
1954
breaking
historians
brigades
replacement
superior
crossing
relationships
observations
nomination
sevent
somali
candidate
clarkson
psych
mozamb
87
cot
jif
kat
santa
##aire
ther
##eds
##ingale
##idden
reag
conqu
##ersed
##emia
anton
proceed
nether
##berts
leuk
##iance
roberts
marines
agency
wealth
secured
pole
accur
simps
transform
estate
##ropri
campb
1937
stretch
believes
nightingale
destroyers
brien
teacher
rooms
wilde
substit
##aska
jerusal
bringing
adults
documentary
skye
intersection
picked
photograph
bono
recommended
francisco
fungus
amateur
jifna
simpsons
jerusalem
gone
lad
ré
sections
##eenth
##rations
##mely
##var
##inj
##itled
shore
##pping
spin
adams
partial
brand
##ultane
genre
releg
simultane
steam
missed
1955
classical
archb
moral
demol
legs
streets
sword
##ivalent
nevertheless
surviving
hamilton
territories
languages
multi
olympics
concerns
watershed
leadership
rifle
extremely
windows
argentina
organizations
learning
bure
gather
rum
sell
sang
sons
tank
##rab
##och
##water
##ān
##rected
##elle
1900
##avia
##uma
##istol
existed
tries
clay
cloud
parties
##wealth
teeth
consum
showing
distributed
1958
myc
detailed
correct
listen
commonwealth
heaven
ruler
approached
talk
ancest
banai
surrounded
absor
autom
arrangement
emerged
diameter
extreme
encouraged
compounds
##ranean
witness
chamber
3d
79
ax
dim
hoc
nas
option
page
wants
yan
##gie
##inn
##asions
##ici
##acent
sty
stem
##ider
##ays
##imet
##eman
##ctions
firing
cloth
adam
carter
songwrit
counties
armor
1949
1977
videos
triple
attempting
crossed
suffering
regularly
institutions
norman
immediate
hoped
giant
apparent
climate
behavi
lbw
tunnel
admiral
roger
unusual
freedom
isolated
inspiration
lennon
ecc
hud
ori
pion
ryan
sessions
tig
tales
util
wy
##dal
##ívar
##inals
##entions
orn
##union
##abeth
tra
hergé
admitted
relative
goffman
indeed
pointed
blocks
assumed
121
designation
##iversary
anniversary
owner
protests
13th
confron
detail
verse
visible
mole
possession
footage
convoy
strongly
treated
statistics
veget
##ombat
identity
sequel
kilmer
duties
dynam
hundreds
janeiro
bolívar
hydro
reconstruction
crusad
parallel
portrait
protagonist
initiative
saprang
resources
expansion
franchise
bce
craft
fern
lanc
mis
nap
sad
tie
wic
wim
##zer
##gas
##mark
##fri
##rets
alph
##oting
shop
##umst
prerog
reconna
aged
meets
fled
winner
retreat
airline
transition
musicians
122
1983
medal
imposs
##aws
internal
godd
trials
approved
easily
##ugu
1920
lawton
debate
cycle
circumst
improve
indicated
completion
concerned
attracted
pleasure
wearing
specimen
cabin
camera
fixed
concerts
eggs
georgia
##bledon
wimbledon
reconnaissance
dip
lap
rated
##eor
##de
##orous
##oming
##adu
alg
##ceived
shakes
orbit
serial
carbon
pool
blow
parks
accused
recordings
ministry
ackn
willing
starling
artific
meteor
gerard
collect
destruction
bush
effectively
influences
looked
falling
##ipping
rhodes
composer
queens
practices
institution
choir
richardson
traveled
hunting
jean
settled
publishing
cambridge
somalia
terminus
incorporated
doubt
korean
adjacent
dramatic
remnants
download
behaviour
acknow
88
99
91
ba
kombat
si
sid
ts
vent
wings
##rant
##yon
##mod
aniston
heat
shots
##aints
##ava
recalled
afterwards
partly
ages
mega
web
preced
decor
earl
somewh
driving
operating
obtained
storms
1910
restoration
aviation
corp
eleven
keamy
solar
victims
harv
stands
1909
meetings
selection
strip
pitcher
measures
inhabit
seemed
painted
garc
purchase
recovered
owen
behavior
##break
bridges
jesus
pupils
somewhat
93
cake
pure
tone
wond
##ti
##ala
##aling
##isf
##isis
##iles
##thosaurus
##ivals
bear
islam
fraser
anek
shif
spend
spaces
##achus
desert
cob
parish
mayor
preserved
poland
origins
armour
directors
johnston
##ropol
crisis
persp
germans
1931
1935
1912
implement
convin
representing
destroyer
researchers
ceratops
funds
hosted
reduce
escort
normally
linked
arabic
architecture
cancer
doctor
sculpture
distinguished
caval
plunketts
prohib
corythosaurus
goddess
anekān
63
bos
covers
fia
hat
ira
tu
tailed
##rest
##ooth
##pear
##how
##wich
##err
##itals
##eline
sher
dean
##abled
income
conte
allah
grace
##raf
aggress
displ
overwh
interaction
flo
forming
monuments
defended
schem
generals
##eera
expensive
medium
attacking
1932
##aware
waterfall
##tendo
trading
crosses
programme
covering
equipped
circulation
stayed
renew
##going
responsibility
judge
nintendo
junior
opposite
controversial
elsewhere
vessel
sisters
marlborough
puppet
rhythm
infrast
archbishop
hockey
prerogative
shakespear
artificial
overwhel
shakespeare
cave
dag
diet
fate
tick
voted
wine
##nell
##6th
inau
##icts
##oul
##elet
proport
##allow
fei
disaster
otherwise
embar
subs
supporters
metall
collabor
1911
arrested
internet
##ews
patrick
promote
1929
1921
##inking
lawrence
lowest
palmy
burning
insur
accommod
rebels
diag
throwing
essential
diamond
legislation
pushed
stanley
fatal
mobile
beautiful
elder
passengers
netherlands
impossible
inaug
82
bone
bert
boss
cem
citing
gates
hi
mant
##tw
##yard
##no
##bie
##atures
##any
##itated
##etery
##olay
comments
##umps
##oven
mans
manusc
##oking
##anger
charity
acclaim
understand
understanding
defences
retained
162
1962
helmet
returns
advis
occasions
1959
1938
geoff
raise
patron
villages
walk
involving
equivalent
praise
atlanta
difficulties
audio
tribute
satur
observatory
objects
intensified
panel
absol
exhaust
pitman
doctr
carrying
vessels
ethn
batsman
cambodia
criminal
stefani
elizabeth
garcía
cemetery
manuscript
74
ace
cbs
eric
gw
oak
pir
pip
pink
sed
sulf
tale
##cement
##ns
##mel
##attered
##aren
##terbury
answ
##uls
sees
spr
notably
recur
integr
canterbury
flower
param
reveals
subspec
slide
mediter
collaps
confeder
latex
streak
temples
periods
1920s
causes
defeating
limit
horiz
needs
fallen
voiced
narrative
committed
princess
housing
##ometric
aerith
thousand
laboratory
apparently
saved
overseas
environmental
palestine
democratic
biographer
survivors
preferred
phillies
resistance
citizens
context
subspecies
mediterranean
06
07
dc
fold
hull
mental
u2
ward
##tado
##graf
##iable
##ping
##la
##ka
##fare
thro
##onica
##arf
##ingly
##illy
##etime
ready
##imate
##using
shut
shipping
##illing
##aboration
##uda
##elli
manga
usd
agree
##ffles
bron
canyon
formally
warning
followers
elabor
divor
transc
musician
161
##annah
crush
considers
##ahl
furtado
collaboration
raffles
refers
suggesting
represents
jackrab
representative
criticised
markgraf
doesn
merch
tribut
closer
platoon
catech
visitors
absence
ambass
products
productions
colorado
journalist
imagine
disappo
congreg
sleep
proposal
deployed
grammy
dialogue
exposure
bureau
bapt
dens
gib
las
lith
mam
nom
nhl
sale
tong
ust
##aš
##za
##iar
##ym
##sch
##pret
##kh
##math
##vis
##ár
##atus
##isms
##stood
stable
##ola
alter
sholay
##agu
##odies
deem
##essive
##arts
twin
aftermath
amino
##rupted
interpret
##ribed
remember
thereaf
surpr
166
depending
##roll
##ullen
extent
universal
convection
skull
networks
predators
stationed
dominican
poorly
republican
ranges
displays
ensure
moments
aware
recovery
drums
##worth
##coming
krak
vehicle
sacred
spiritual
sharp
communications
muscaria
##burg
nickn
trouble
submarine
##inje
fernand
saturday
ustaš
thereafter
05
89
baker
cater
fing
gust
hob
lose
lists
nur
nurs
saves
##eper
##cements
##ram
##zen
##ias
##uri
##umin
##aka
intense
appropri
coins
teen
paras
throne
cape
driven
1940s
113
15th
annually
loan
expand
useful
models
modified
maggie
childhood
avo
extension
entitled
posted
radiation
representatives
summ
##shore
influential
##encies
fifa
verte
mexican
talking
situated
injuries
withdrew
corner
publisher
purposes
garden
opportunities
excavation
advertising
reservoir
##iques
simultaneously
dipl
infrastructure
900
bore
dawn
eu
hok
jenn
pier
rates
tight
##rates
##rator
##ook
##vn
##vements
##vati
##ester
uns
##icop
##real
##eland
##lete
forb
##etts
##igation
##otic
anime
shark
seas
suic
##apers
orb
plane
##ishment
spoke
clock
ammun
ago
upr
norway
interests
actual
parvati
##mann
engines
writings
driver
severely
generated
originated
installed
stead
barker
lob
helicop
restrict
blacks
easy
1928
sugar
historically
supern
grounds
factors
massachus
burned
readers
matt
##onomy
informed
inher
materials
properties
happened
athletics
watching
robin
israeli
caes
adventures
wrestling
nichol
réunion
circumstances
ammunition
massachusetts
bah
cec
gary
hamp
kann
wi
##lec
##esc
##organ
##elin
##ilst
##acle
whilst
asc
frig
shells
##aga
degr
##ables
spur
##ears
resign
relie
partially
agents
carp
carved
weigh
deck
##weight
format
formal
tex
remark
movements
starlings
operate
anyone
raaf
glad
patty
victories
1927
switch
amongst
hurricanes
everyone
casting
survive
propag
richmond
mixture
departure
biggest
wilson
garrison
layer
portugal
emergency
bombard
instruments
eaton
bulls
##tavāda
swedish
plateau
affairs
substantial
ille
anekāntavāda
gwen
ustaše
kannada
cu
caves
gle
lam
már
pull
rising
sic
wives
yug
##lie
##life
##erry
##esco
##itt
##ication
##ician
wasn
forty
##ithic
bearing
##chang
##andoba
shear
##osl
##aku
price
spores
enfor
##oster
twins
abund
residence
resigned
commem
marry
##teenth
##ricted
howe
phr
armored
123
instance
ports
disturb
downtown
persu
loose
classification
1933
midge
reprodu
restored
raf
listing
deliver
##quez
compete
fifteen
looks
techniques
sung
veronica
innov
creative
sequences
khandoba
personality
documents
interesting
establishing
occupation
thinking
##itzer
boxing
simpson
struggle
reinforcements
pagan
premiered
terrorist
corporation
stewart
yanke
wicca
márquez
yugosl
68
dele
jr
nad
pale
ride
wag
yo
zoo
##har
##western
##ja
wasp
##roit
forcing
##osis
prol
prove
##rif
##apy
##iped
contest
abd
resolution
##kend
sole
drain
miller
continental
designs
offices
##ucing
weekend
1957
myst
##onto
detroit
universe
##scop
frelim
funer
21st
sounds
toronto
scientists
predomin
wright
recognised
salv
achieve
inhg
martial
experiences
weapon
preparation
illustrated
neighbor
application
minimum
jurchen
phoenix
mulder
moderate
retirement
mozambique
cotton
##friend
acknowled
catechism
deleg
frelimo
67
bang
benn
celt
gor
kim
kansas
mail
mbar
rect
sb
sar
sans
tide
tiss
vast
wet
##śni
theor
##enz
##oux
##rell
##amer
##owiec
##utz
##uses
##osa
##osom
##ishing
trained
##antly
boom
scully
usage
cars
attrib
poison
engage
founder
starred
obst
metropol
depicts
##atherine
variation
barry
westward
characterized
christoph
moore
kevin
harsh
presentation
formerly
cleared
sufficient
burial
archaeologist
measured
costs
objective
huge
giants
battlec
russia
revolutionary
pictures
excavations
mechanical
tanks
delayed
tactics
philosophy
cubs
coleman
cryst
gilbert
remarked
hudson
convinced
scheme
wiśni
##owiecki
battlecru
wiśniowiecki
84
bald
fro
kid
mood
osc
pig
rib
vote
wel
zomb
##eit
##cy
##uable
##mouth
##bing
##ét
##eratops
##alu
##rot
render
frust
chron
shadow
plus
##ategy
##akota
trick
herald
incom
roth
feathers
margin
playoff
partner
impl
brick
coff
decides
##amps
jobs
blues
warren
regiments
revival
surg
strategy
divers
crops
163
describe
crake
persian
designer
passion
magdal
publications
arriving
140
differences
harm
valuable
1926
opponent
expert
skills
claiming
trek
draf
factory
##book
hamlet
turb
select
audiences
striking
fundament
closest
antiqu
clearly
ranging
duty
displayed
mrs
frequent
graphics
impressed
magnetic
determine
schedule
communication
benefit
inscription
feeding
residential
##heim
predecessor
voyage
styles
wonder
cavalry
ambassador
mamm
hokies
texts
oscar
tenth
##rating
##piece
##kes
##bn
##boy
##onic
##aled
toll
##rees
##iling
aside
isbn
chag
chanc
##iform
##abil
enth
clin
abby
roots
commons
cargo
centers
attained
peach
releases
ell
defending
armament
artwork
teamm
install
##yline
commandment
considering
arrive
restricted
temporary
promised
prompted
harbour
valky
trend
highways
peters
argues
1905
elections
declar
turks
machines
ranking
ruling
cruise
quarterback
err
malley
loud
batteries
badly
newspapers
imprison
magnitude
aspect
victorian
degrees
protestant
grown
alleged
waiting
leslie
definition
##iveness
##rosaur
jonathan
mathews
adaptation
updated
exclusively
kelly
pioneer
perspective
diplom
chagas
valkyria
08
58
78
bones
code
dave
esh
erected
jet
mcl
mitch
ns
uef
vac
##rich
##rants
##tles
##put
##burn
##inery
##inder
##icit
##icia
##thy
##state
##olen
##owa
isot
analy
comics
deity
depr
nebr
exists
##akum
##ishn
enh
clark
allen
resumed
relation
outbreak
pret
decay
earn
interpre
charged
paraly
northward
northeastern
surge
artistic
metre
178
magadh
explains
patri
handled
furthermore
tourist
bands
jackets
heroes
structural
fifty
satisf
talent
crews
strengthened
testing
injured
anthem
amounts
celebrated
investigation
boundary
cheval
bulk
chronicles
manufactur
globe
liberal
dwarf
disappeared
brooks
cinema
drug
inhabitants
iraq
bertin
ethnic
deemed
nurse
suicide
uefa
nebraska
paralymp
magadheera
86
bind
banned
cov
fel
lies
nash
sab
tack
zinc
##uge
##gov
##yce
##nal
##night
##hm
##vant
##eries
##omtav
##lets
stores
forg
asomtav
rend
##emies
chain
shield
##odr
##apse
##ifies
##illed
ark
pryce
enters
herze
scattered
amid
##okovic
brill
upset
assess
peaking
buy
emmy
southeastern
supplement
millenn
165
landings
runners
##ertain
##elsen
exposed
demands
difference
triang
organisation
refuge
basement
harold
1924
1925
seek
referring
profile
davis
trophy
turrets
1890
circle
condem
madrid
dominant
uncertain
prevented
djokovic
settlements
buddh
demonstrated
distinctive
pursue
inscriptions
nielsen
executed
##otype
assassination
substitute
meteorological
proportion
diagn
yankees
##govina
asomtavruli
herzegovina
aster
bible
dies
hou
holl
kong
##gro
##noon
##ora
unp
##ilation
##ecraft
stu
stood
altered
congo
sho
##agement
sure
##essee
##ifer
export
recip
abol
afternoon
fee
feels
##ignment
offs
weir
coin
paran
assisted
consult
liked
acre
acute
smooth
runway
##fully
sixteen
edges
expect
commandos
1934
conflic
eleph
possess
approval
prompt
valve
initiated
anglo
sunk
philip
magazines
jews
berlin
rebell
hostile
madison
satell
indicating
murray
subjects
tennessee
tournaments
melody
suspended
succeed
translation
advertis
pounds
defenders
premiere
alfred
false
warrior
##borne
commemor
celtic
houston
09
03
92
cant
cous
dor
dual
denn
gill
gift
ken
lud
ndh
rag
sas
tast
va
wu
ww
##cake
##aver
##ois
##greg
##isters
toured
##ilty
ontar
anch
##unction
##sex
enzy
##ellar
mariana
sheff
evolution
disband
prefect
charm
genetic
underne
##endar
guilty
##ologies
laugh
string
receives
101
belg
conclusion
deput
signs
reducing
deliber
tempor
explo
swiss
realized
1000
requested
ordering
federation
walking
romanian
programming
presidential
##encing
1908
reader
biological
colleagues
respective
violent
certainly
keeping
adopt
bidd
conservative
architectural
hawaii
recommend
measurements
##burgh
delivery
eliminated
orchestra
kurt
rebuilt
paramount
wagner
eshmun
pretty
chevaliers
ontario
sheffield
underneath
02
bom
dakota
gets
gamb
omar
oreg
pf
riding
tip
yield
##ressed
##oom
##gars
##ses
##vious
##ware
##nda
uniform
##aski
##reet
##adier
sting
stav
strict
##lying
asian
asks
chest
##ulu
succ
leigh
tracy
complic
components
clint
boot
abc
amaz
carre
evans
impression
noble
consp
operates
obvious
155
peoples
anne
helium
christine
visiting
organised
harrison
1923
sentences
shoulder
rhys
circuit
animation
wrapped
rounds
parliamentary
employees
observation
sympt
venues
potentially
coaching
chicks
cougars
autumn
intellect
benjam
rhyme
pulaski
hawaiian
withdrawal
molecules
mathem
partnership
culmin
queensland
collapsed
elaborate
carpent
propaganda
oregon
benjamin
cass
dict
fasc
gent
lakes
linc
lanes
mk
pace
rav
wander
zan
##rus
##ön
##inum
##inian
##atropical
##anag
##acecraft
##etown
asking
##oln
##olid
chase
shorter
suitable
##apore
expression
##arte
spar
spacecraft
##iney
clust
contribution
##ogy
##raia
uss
goat
canon
coordin
earning
##osex
parade
parody
remove
acids
subt
singapore
starring
##ieties
##ernon
dams
advancing
##ucks
##ontin
14th
corb
believing
kills
valid
sentiment
youngest
seeking
africaine
woodhouse
putting
voices
ruth
territorial
keys
wider
renov
inhab
wildlife
platinum
theatrical
drove
dispute
logic
boundaries
documented
translated
compliment
neighbour
comparison
borough
extratropical
korea
sisler
sorraia
columns
pagod
negotiations
##imetres
islamic
doctrine
christopher
surgery
brilliant
lincoln
bou
cullen
dd
gap
hans
jard
jason
nic
naming
racing
sant
sample
soph
##gam
##dney
##krit
##mus
##mont
##hol
##vised
##bal
##xic
##onia
infer
##inge
topped
##reh
##acru
forth
##iders
bears
##uting
##odore
prosp
##esswell
neil
##udes
spending
notice
inclusion
scar
scout
carmel
disagre
overl
##kshire
##graph
produces
##enden
revised
presby
submitted
airlines
continu
completing
couldn
crab
cresswell
collapse
universities
##rene
personally
explain
exploration
bases
swim
briggs
prix
friendly
representation
factor
illness
1907
nettles
industries
devotion
volumes
matth
veracru
innoc
fishing
semif
bodyline
removal
questions
birthday
favorable
ultimate
powered
reflected
prepare
shrine
honorary
766th
telugu
louisiana
agriculture
sculptures
ingres
beauty
encountered
molecular
vertical
segment
battleships
gravity
suddenly
strategic
degrom
sanskrit
millennium
satellite
belgium
temporarily
biddenden
jardine
presbyter
veracruz
aa
az
cash
dad
ders
dud
fis
foss
fulf
hay
hidden
jury
liv
mg
nu
nl
nave
pec
sack
sony
sailed
ump
xii
##rat
##ract
##gets
##nie
##pe
##went
##atural
##anita
##itively
##icate
##icial
##eled
##urally
##tering
atom
##vereign
##estyle
##agogue
neves
arvn
##ieth
scand
grave
amanita
brain
brack
upgraded
coinc
flies
##enses
joining
underwent
sovereign
liqu
##phoon
symp
phen
genera
armies
mainland
meters
signal
likewise
provinc
westmin
ideal
easter
1922
traded
charted
lesser
radical
vii
ballad
commenting
memories
approaches
nominations
choose
ernest
discussion
objectives
assembled
synagogue
ninet
junction
punt
administrative
fitted
pulled
shares
struggled
prisoners
steps
neutral
emphasis
beliefs
wishes
consequently
accomplish
echo
jacob
typhoon
campbell
demolished
cabinet
sioux
corpus
##howitz
pattycake
illegal
phrase
bennett
chrono
fundamental
conflicts
clinton
dershowitz
dudley
nevesinje
provincial
westminster
83
dust
fib
fusion
ian
kiss
nam
pp
pic
pages
sect
sult
sings
tony
##rad
##zib
##nc
##nels
##kely
thor
threw
##inations
##orable
##acre
##acles
##olithic
##ivated
beth
beings
beats
##otte
chan
shift
suit
preston
abilities
allies
alliance
gran
##rae
usher
##oko
aggreg
carries
finale
brut
canning
pref
indones
pohl
gene
guerr
drivers
quant
mainstream
developers
obl
##atched
170
crest
advice
idah
reviewed
controller
eventual
keith
stream
switzer
profit
connect
electron
facility
merely
achievement
snake
reduction
1861
360
credit
daughters
temperatures
percentage
punishment
pilots
unlikely
reforms
chronicle
charlotte
danger
columbus
reactions
conversation
argentine
sweden
ibis
130th
cooperation
kirk
rotation
abbey
appointment
unnamed
leukemia
tigers
horizon
caesar
neighborhood
metropolitan
enthus
wwf
wanderers
zanzib
idaho
switzerland
dahl
gosp
hast
jen
lig
nel
pad
pak
pyr
ri
sq
tub
tape
telling
vs
vel
veter
yout
##cer
##right
##father
##hang
##wer
##ji
##iná
##inction
##esi
##atically
##oust
onwards
ongoing
stun
stellar
isle
isesi
##cher
##ager
##opl
##riages
##artney
##ishops
trig
trails
enemies
recall
herd
##iao
eve
evalu
offering
offshore
outl
dece
decisions
##ensions
blu
themed
mines
revol
dover
guid
##ternal
strange
backed
belgian
117
everton
advoc
restore
christians
controls
soci
delaware
antic
harbor
harmon
lessing
contrad
helping
speaker
walker
significance
tooth
travelled
excell
devast
facil
machinery
draws
measuring
madero
closure
duo
teachers
350
investment
mccartney
hoover
traveling
airports
senator
immort
taxonomy
aerial
aerodr
accompanying
lifetime
sporting
gardens
gardner
toniná
elevation
ceremon
duration
patterns
synthes
nazi
recreation
depicting
alberta
pregnancy
census
clothes
confront
armoured
aggressive
uprising
nadal
stuart
deputy
##osexual
##music
gospel
pyram
youtube
cel
cards
hub
jar
jaw
kate
lumber
rig
tut
veer
##iary
##sis
##dles
##low
##lus
##inated
andre
toy
##star
##amil
stap
##olia
reh
##imeter
shirt
printed
trapped
trunk
spots
encl
adela
manor
allosaurus
permission
disli
earnest
acyc
revenue
sydney
retal
preserv
wells
operational
juven
commands
commanders
myster
arrest
bread
raising
trio
values
farming
requires
##itarian
donated
connecting
1902
exclud
1895
matters
pitching
##ships
madonna
closing
indicates
khan
twentieth
ferry
dubbed
pairs
terrain
policies
searching
thirteen
cancelled
preparing
candidates
concentrated
seattle
farmers
conversion
execution
aimed
leonard
exactly
joyful
determin
cosm
knights
accurate
##iciently
hydrogen
crusaders
decorated
embarked
manuscripts
recurring
bronze
arkansas
stavanger
carpenter
sympath
phenomen
adelaide
acyclic
01
dense
hpa
hnc
lion
pin
rick
rocks
sket
vand
wore
waves
zo
##rain
##zi
##dream
##lock
##bound
##ʻi
##inth
inning
##isle
touring
toky
##rose
##lev
fore
whate
##oli
reop
reject
beating
alive
##otions
chen
chord
##osing
seats
leeds
##iang
compilation
abroad
rook
##oken
mars
serbs
apprec
evolved
##pled
##ffling
intercept
flesh
poets
consolid
files
daydream
monster
monkey
positively
movies
fourteen
maur
epic
phone
backing
transmission
125
maintaining
operas
##oyd
steep
barbar
chrom
characteristic
myself
detected
reaches
christi
internation
morgan
demon
mothers
##scape
solely
solution
harry
fewer
membrane
soldier
functions
stronger
strongest
22nd
donald
affil
tenure
broadway
civilians
philipp
animated
lacking
archaeologists
widow
compositions
derffling
qualified
##thodon
mccar
watson
ranks
panzer
fertil
angelou
failing
flowers
ensemb
jeremy
withdrawn
rushing
bulgar
hawaiʻi
pursuit
ashore
hungarian
volunteers
interactions
wickets
witchcraft
hypoth
unclear
dinosaurs
wealthy
eccl
wyoming
vegetation
dynamic
fernandez
vertex
tissue
cousin
whatever
derfflinger
gaining
gael
hence
jur
kody
liz
m3
mack
ped
sib
tag
##equ
##ci
##tz
##oard
##ygen
##power
##erce
##esters
##ecution
##street
stakes
##aya
conj
fried
heir
##essors
arena
trains
compens
abuse
allmusic
##athered
amph
permitted
##raid
commerce
evident
megal
overlo
intermedi
acted
joh
maya
mint
sax
acoust
retail
retrie
presents
airfield
surprise
laud
singers
wellington
numbered
##tenance
105
starter
127
maintenance
168
concession
obtain
114
governments
barrack
successive
idol
protesters
confession
gender
geography
extinct
increases
heavier
handed
##eltown
goods
romania
coverage
cyt
cyrus
grandfather
occurring
1903
bowling
identify
1889
cruisers
cutting
negl
physics
arabs
examination
oxygen
hunt
targets
marketing
consistent
bradstreet
seriously
utah
precip
bedell
reinforced
opinions
neutr
sora
virtually
grammar
loved
honours
jurchens
ownership
puzzle
pregnant
photographs
relegated
mantell
pirates
divorce
##schild
appropriate
hampshire
rothschild
interpreted
taste
stingray
succession
symptoms
gentle
xiii
sultan
anticip
pyramid
gaelic
bib
eg
ioc
ky
kō
kau
mud
na
nut
ost
puma
rains
sized
votes
##othing
##ori
##orious
##enous
##aret
toler
##elg
forever
reper
##utch
conform
seized
##una
tristan
##udo
clothing
manip
manuel
sciences
resid
perceived
timber
feud
margar
##ormal
brun
interc
##ensis
attitude
##ilding
engagement
understood
##orship
revived
guine
guild
guides
infection
distrib
depiction
continuous
downstream
varied
barrier
helps
collections
halo
capturing
trium
explicit
tours
bills
telegraph
authorized
survival
defender
sitting
##issioned
statements
230
fortune
hamper
irreg
balls
announcement
departed
audition
copy
fault
flooded
salmon
christianity
balance
housed
hospitals
breaks
1849
participate
hunter
constitu
coldrum
habitats
promotional
kilometers
blocked
questioned
savage
legislature
pounder
palestinian
registered
ohio
resemble
etty
experimental
mlb
tasked
puzzles
immigration
indigenous
rhodesian
displaced
renewed
subsid
drainage
crystal
margaret
irregular
cod
dot
fi
gaming
hannah
iowa
mall
mason
mask
nice
nca
pistol
rä
ss
wik
yor
zero
##cover
##oh
##kön
##xe
##era
##asm
tod
##thren
##roph
stim
##terior
cha
heb
deer
orange
trond
component
fires
clocks
manual
scorer
graves
resur
resol
carn
##ricts
interstate
parent
nob
accum
acceler
warn
preserve
quiet
smoke
directing
creutz
metro
distances
districts
174
slayer
edited
persons
##azer
confusion
brethren
refere
victim
tourism
replied
funny
flew
reportedly
horror
electrical
vegas
excess
birming
##ikkön
linear
roller
tennis
arrangements
graphic
reflecting
kickoff
rays
comprised
rescued
touchdowns
fastest
haitian
alleg
skinner
borrow
vicinity
dependent
##blazer
volunteer
hellblazer
gregory
staley
loverboy
banksia
undertaken
absorbed
alphab
bosn
tickets
palmyrene
restrictions
disturbance
mystery
isotopes
rebellion
dennis
mathemat
subtropical
zanzibar
tokyo
barbarian
ecclestone
ncaa
räikkön
trondheim
birmingham
räikkönen
aub
dancing
ful
hollow
jag
kids
lind
orib
pam
vital
xe
yd
zagre
##zona
##yers
##kets
##wan
##ình
thak
##inness
##alf
stern
##olence
beeton
fru
atop
hearing
##ulous
shim
##unes
##arded
prest
trough
compreh
worn
intr
aboard
##achute
amyl
relatives
marie
norwe
##ensively
parachute
highland
##ilda
consent
##alsa
##veland
genu
mini
miners
##phone
subur
caps
drinking
singh
locally
quiney
concur
##erto
variations
redes
##rows
extensively
lights
convict
curved
behalf
cleveland
freakum
angle
radar
battlefield
arguing
1906
1901
##ficial
praising
chapters
penet
squadrons
denomin
tommy
businesses
hitting
derby
escaped
liner
##guard
crickets
consistently
opposing
craf
bombing
concepts
essentially
##iscus
preparations
##exp
manufacturing
1819
telesc
exhibition
wait
requirements
fragment
extending
batsmen
sending
cambodian
rubber
bruce
microscop
exclusive
software
arizona
kennedy
hughes
indigo
reagan
cobra
disappoint
hobbs
corbet
complimented
matthew
tubes
ensemble
conjunction
barracks
zagreb
norwegian
cow
cott
dat
fits
faster
garn
hong
ion
kyle
lor
liao
mit
mature
naked
rice
saving
tested
vig
wake
##rous
##oly
##ić
##iac
##ng
##fast
##inaw
##orage
##arm
tools
##uration
##adi
stick
##olin
reines
beam
beak
##char
conception
bypass
##osity
deals
oral
plains
exceed
##ocaust
spawn
enorm
##ourse
##order
allocated
grain
users
usual
commenced
marge
serb
apply
partington
sheep
overt
centimetres
decomm
##aceous
assy
assum
ministers
sox
##phrey
doyle
airborne
simpl
recept
johnny
persist
rede
advised
heading
justin
brenda
humphrey
archer
tracked
courses
##asha
tempo
explore
swamp
convey
militia
curt
competitive
220
261
mixing
atlét
device
1897
predicted
lacked
transported
tombs
commissioner
1880
holocaust
urania
painter
venue
1878
egyptians
dioc
motif
administer
borders
reflect
beaten
dedication
essay
owl
shrub
europa
neighb
pushing
josé
lucas
concerning
households
vulcan
loyal
kenneth
conscious
nasa
transcription
steadily
funeral
asteroid
advertisements
intellectual
pagoda
acoustic
retrieved
kyra
atlético
ah
bishops
dick
eating
ety
gay
kw
lü
lon
lumin
mong
mate
pm
sank
tawn
vow
yang
##uters
##rí
##tic
##parts
##dy
##lot
##far
##hem
##ée
thai
##arro
unrest
##anville
##itely
waste
##acelet
##irts
##olis
reward
item
chi
chop
##andra
comed
comfort
proceeded
##aping
##ighters
##ifeng
pled
placing
##ocy
leaf
##acks
butter
grah
1800
goth
canals
##active
flot
assert
warned
warfare
speculation
retain
studying
quoted
portions
169
obsc
distant
complement
slopes
##ernoot
load
loop
austrian
##aza
commanding
magical
visits
glanville
storylines
villaret
experts
priests
superman
angry
##obi
navarro
labyr
argument
##bracelet
connections
ecu
marking
insects
homosexual
funded
floods
approaching
educational
talks
1860
qualifying
minority
##pani
threats
murd
happen
participants
autobi
constantly
franklin
russell
celebrate
##zzi
investigations
lloyd
ignored
comprom
sexuality
expressway
grasses
concentration
articles
kaifeng
scholarship
flagship
legends
##hedruli
troubles
applications
repairs
altarpiece
calculated
conventional
survivor
vulner
alfa
challenging
recreational
sponsored
licens
lancaster
inaugural
absolute
exhausted
tributaries
baptist
density
summary
cecil
coffee
declaration
patriarch
condemned
cantrell
charmbracelet
mkhedruli
vandernoot
hebrew
borrowed
etym
tawny
graham
labyrinth
billy
ds
dri
dying
fab
gam
gathered
haz
lt
lan
lect
mv
pc
roc
raw
rivals
sina
ties
torn
vint
wis
wno
##rh
##zu
##nall
##ded
##lane
##feller
##htw
##bow
##wick
##inces
##oral
##atum
unre
unless
toxic
##icity
##icians
##ilis
##adic
stere
stall
##olics
reun
beer
isles
check
shock
procl
##rik
leices
spore
clergy
button
manage
amend
desper
carriage
##place
finest
bristol
centered
indolence
decide
##ibilities
##kefeller
##rible
parrot
noise
knocked
undergo
buff
buoys
elgin
emotions
monit
larry
dozen
surpass
quit
106
transits
slave
edit
##uedoc
shipments
austro
austria
passages
roadway
reporter
humor
tracking
moist
progressed
legit
explaining
promise
similarities
traditions
replacing
politicians
angles
treas
wanting
eighteen
240
catholics
viadu
travels
destroying
1904
devoted
languedoc
lyrical
grows
sanct
berhtw
memorable
improvement
salary
ulster
urged
hook
screens
truly
hoping
gielg
flows
publishers
